node {
  name: "input_1"
  op: "Placeholder"
  attr {
    key: "dtype"
    value {
      type: DT_FLOAT
    }
  }
  attr {
    key: "shape"
    value {
      shape {
        dim {
          size: -1
        }
        dim {
          size: 60
        }
        dim {
          size: 80
        }
        dim {
          size: 256
        }
      }
    }
  }
}
node {
  name: "net_vlad_layer_1/cluster_centers"
  op: "Const"
  attr {
    key: "dtype"
    value {
      type: DT_FLOAT
    }
  }
  attr {
    key: "value"
    value {
      tensor {
        dtype: DT_FLOAT
        tensor_shape {
          dim {
            size: 1
          }
          dim {
            size: 1
          }
          dim {
            size: 1
          }
          dim {
            size: 256
          }
          dim {
            size: 16
          }
        }
        tensor_content: "q\'\007=\200E\305\273-\202#=\320r\227;a>\030=\266.\013\275\375\375<\275\000\034\326\274\235\255G\275\364\'a<\215\273+\275Qb:=\320\2148\273\250\370)<\227\247\002=0\213\"\273\330\332k\274Mg\272\274\240u\317:\242S\207<h\220\007<\332\3465\275\364\352\023\274\207\2249=#\r\023=\240,@\273\230}\036<\247\264 =\023~%=\300$i\272i\364==:\r\275<Mf\306\274\355m\256\27432\310\274\0000\307:m\344\303\274\372\351\205<S\224\376\274\035)\032\275\355m\311\274\216K\330<\026\273\r\275\350\354\234;\300\334J\275DVv<\272w\217<y\260$=f\327\010\275\340q\273\274\303zA\275\330X\003<\320\232!\275h\033\032<X\376G<WX\035=(\2203<\363\024\314\274\232\304\231\274\316m\277<t\330H<\007\r\321\274\240\273~\273\332\201\220\274\201\030(=\214w.\274\000\032\351;\375\2113=\230\324\325;}\364*=zA\330\274\360-\000\275s\022B\275\342t\227<&c\222<\214\2609<P\303\322;\364\375}<\215\010<=\322^\271<`.\352:\330\340=\274\2224\201<G\311\005=\364&\021\274\000\263t\274\200\321\'\275\261x\'=\372\272\204<g\300:=\240\300\035\2734\000?\274Lr\032<\316\'\240<*\306#\275\300l\306\274ne\374<9\325\000= \'\030\275\032R\362<\222]\202<\000\244\006\273GI\236\274\342]\301<\314G\033\274\'\2111=C\010!=\347\256\014=\327\271E=:A+\275\023\254\362\274@\257/\272DJ\002\275\330%!< \230\244\274\332\233\217<\264\257]\274\022\324\204<P$\252\273\224+\215\274\206>\242<\3205\033\275}\213\006\275\335\273\002=2\224\336<\214B\013<\264\3252<\352\"\t\275\335\017\022\275\224\262\206\2740\351Q\273\200\306\2209\314\303\201\274\264Fo<\223\300\016\2750C\264\273@Sy\274\300\252\314\274\230V\353;\206=\310<0\267\037\273\342\317\267<\350\2336\274z\205\352\274\000\365\310\271!\261\007=\000\343\310\273\200]B\275\247\037\002=0\0177\275X\000L<D%b<Pn?\275\007\316E=\366\263\t\275G\t3\275\331f\016=\240\0173\275\361\372\021=\332j\346<\243\273A\275\007\202\334\274\243\273I=\320\277\226\273P)#\275\023\201\326\274s27=\214w\'\274\035g\016\275:\314\371<\200v\312\271\rG\013\275\014\257`\274\200\t\016\274r\215\312<G\354\245\274\327\003B=\272\275\021\275\356[\212<h\224\217\273\372e2\275\315\200\272\274z\204\201\274\372x\224\274`j%\273q9D=\330\357W\274\351\210\034=i\315:=\264?\033\274\332\354\345\274v\243\021\275m\257\024\275\232o\366\274n\n\341<\000\314+8\263\203\276\274:a\032\275\350~\260\273}d+\275\222\367\342<0EQ;\200\275\t:F\266\272<\306\177\250<\350N\266\273z@\365<M;\254\274\346\353\262<\"\001\255<\032e\323\274@\246L\274@>\266\274\230\002I<\032\344\232<9\220\021=\332\345\326<\350\014\265;\372\375\276<Z\315E\275SIJ=\t/7=\000\024\272\270zs\370\274m\3566\275\001\3716=2t\200<\200p\242;\251\325(=\344\006t<\252g:\275B\224\313<c\205I=\224\004\212\274\314_o<\007\220\034=\200\326\027<&\264\r\275\342\003\340<\014\324\n\274\000\317\177\274f\201\242<7`\003=\347\311G\275\006S\232<\340}\377\2740t\t\275\350\200\255\273\332\225\220<\332Y\246\274\226\261\020\275\343\0057\275\355\217\003\275A\373\n=G\212\037=\263C\005=3\025\033=N@\254<]<\022=\260\345\275;\330\214N\274\307\330\372\274R\235\214<\000\215\202\271\254\264\230\274z\372\277\274\247sA\275\363{\301\274y\224\025=\214)\016<\350\252P\274\006[#\275\030\211\274;c\325G=\322\317\333<`\343f\273\224\213\214\274\366\330\016\275\230TW\274ck@\275\000\037\275\274\026e\030\275\t<>=mM\347\274\255\351C\275\303G$\275.K\305<DFN<\216>\200<\207e\331\274\363\2366\275B\316\301<F\341\307<\200\337\310\2741\024,=M\202\017=\003\2559\275\350\336\310\273Q\236K=0>\006\275@<\033<\207?\232\274\264\030\036\274\230KZ\274\340\314/\2753]\331\274`f\255:\r\260#=\320z\305\273\260]\300;\330*2<\355v\363\274ZE\214<\260\230\276;zZ\270<\000\200\035\273\230\220\031\274\356\257\221<\351\0022=P\353\215\273\300o+\275\256>\345<N5\351<\020.\006\275\306 &\275\367\311G=\207\324\233\274\375\215C=a\243\021=X6\037\274Lh\231\274z\240\200\274\200x\277\274a\253<=ZA\232\274:\325\033\275\323\241\030\275\306\005\227\274\255\351\356\274b>\247<Au$=\320_\236;\200\306\244\274\330L\020\274\032\216\240\2743\027=\275}\005G=\343\037\037=Z\245\361<0\360]\273\007\245\000=\367>@=\332\245\267<\200I\2449\323zA\275\246\016\321<\301\205\006=\307\'\334\274bs\307<\206\002 \275\014~F\274\216\376\351<TV\215\274\014\346\006<\006\360\260<\330\275\025<X6 <\000\031\230\273\242\004\247<\300\253\250\274\000\t\202\274\307\264\364\274-\200\000=3_\266\274\240\3130\273\030\250/\274\232\0228\275=k\036\275\232\345\265<\030\016 <\007\321\343\274\264F.<\355E\335\2740@\363;\200\032\306;\200\246\033<\335\004(\275L\355\021\274\335j\033\275P\267\006\275Md\016=&p\350<m\344.=\263\344\021\275G\031\324\274X\324i\274Z\213\360\274\300\005Y\274\032}\213<\202H\257<\223O\033=\375\0166\2750+\350\273\320j\337;\323\224=\275\030\373\205\273W\311\027=\207\005\325\274-\262\021\275\332\266\374\274M2B=\372\002\345<\006\326\360<\027\0243=:JD\275\232\223\340<ZW\346<z\267\215\274\007\022.= \3077\275\260\033\222;!\2352=\324\236\201\274\r\336\322\274\007s\020=\240\027=\275\356w\204<\264\246\t\275M\316\362\274-\370E\275\255\\\331\274\232\'\261<4\331)\274\000\357/;\360\242(\275\264\345\204\274sTD\275Bn\227<\r\252J=@\236\355\274d\243]<Sa\377\274Y\214:=\304\270U<.\"\331<-q\000\275Z\333\370\274AJ>=\027\204B\275\372j\314<`\036\347\274g\3728\275s\006\343\274\030\022\273;\315\2769=4s:<W\350\017=@j\030<\240\237\206:w(\003=!\320\021=7\3130=X\344\033\274!\224\024=:\203\375\274Z\335\212\274\3146u\274\200T\006<:2\230\274\235q7\275q\257\004=c\324@\2750\235N;\327\2253\275\032g\305<\022\223\240<\332\343\354<P\227\253;\314\312%<\232\235\263\274`N\021\273\304\211z<\000\224\2038X\341\022\274\000~0\274\307^\030=\001\216\005=\272\214\252\274\364\254;<#30=\256>\360<\201V%=mv\277\274m\201\250\274n\r\372<0\"\247;\232\320\356<\375\370\005=\250E><@\355\203:\240\377\336:h\250\254\273\"{\343<\222\356\271<\355v(=gH;=\266\323(\275p\026K\275\230\tR\274\346\222\255<\250\022g\274Q\177\032=\321-?=\321!\003=\340Y\t\275\202\307\302<F\336\027\275\241\323\010=\3759B\275st/=:80\275L\177;<\230\n\231\273\246v\007\275G\360F\275\240\223\264:g\002\000=(/W\274hL\232\273\267\306\013=\240\2123;\2354\000=7\272$=s\315/=4Mj<}\225&=g\353\310\274V\r\003\275P\221\275\273\312>4\275\214`}<\215\257\023\275t\256\201\2744\312y<\350\373\217;\001\005\016=92$=\266#\004\275\'2\313\274\014\216^<m\272\301\274\007:\375\274\020C,\275\000\223\250\273hX\322\273}\213$=\361\355\032=\026\t$\275\340\244\300\274(gA<\312\307&\275s)J=\314z6\274&\330\210\2740\207Z;0\0025\275\006\037\271<0\301\223\273\214\372R<\\\035R<\263\3215=\0301\257;\311dC=\320A\301;\2640\227\274@\201\372:`$\327\272]5\010\275&\206\036\275\214b\206\274L\357\204\274&p\036\275\200\216\252\271`\216\270:\350\2612\274\346c\363<a\000\t=\326\274\036\275#d\037=\235\013.=\332\212$\275M\311\342\274\022\360\256<\232{B\275Z\"\323\274\302\027\211<\202\266\244<\221\3417=}\377@\275\375\206J\275 p3\275@M\202\272\314uB\274\223\353\003=4\337Q\274h\373\215\273\320\300\233;\230\306\024\274\215?\034=@\235\376\274}\224\t\275`\364J;0^\326;\'EB=\246\362\371<\327\3609\275m\227(\275\000\020x\272M\265\n\275\251\2672= \302\022\275gu\337\274\200C\031\275\035? \275\367\'\002=\375\247$\275\000\254\013\273\355\274$\275\001\265\n=\340\324\213\274\260\035\356\273\332>\322<\224^\214\274 \234\256\274\367\017@=3\340(\275\320\370\345\273M\265H=\340\347\023\275-\276$=0\373\324;\201\251\016=\260#\244;\230\316\204\273\350\270\230;\262\231\350<R\023\325<\243\2135=\246\t\313<\223\t\'\275`T0;0\225\372\273\301\316\017=\235;:\275\300\t\035<\342\363\333<Z}\365<&\004\223<\247=B\275`\016\334:\262\362\230<\000\270\2179\032\036\277<@\310\021\275\312!\r\275\343F\"\275\230\016\364\273QM\030=\263@\333\274\022\305\250<A\354 =\230\321\256;p\216<\275F\230\304<s\177\021=\375\257\017\275t\t\001\274`\351q\273\000\276*\275\272\344\230<\300@v:\204?[<\247\2402=:6\272<r\373\312<\ts\006=Z\366\364<\255M\023=T\337\215\274\000\245&;\022!\347<\242\267\341<P\352\224;\3310L=\222h\244<0\363\301;\021!\r=\3557\333\274\204M`<\262\352\230<\314\373\205\274\267@F\275\000e*<\230\372\"\274f\204\'\275}fC\2753\242\031=\262\000\234<\202\325\227<\002\325\256<`\371<\275\264M\231\274\014\247c<\343\031$\275\307\260\307\274\364jN<\251\351\007=\022P\353<\271\312E=h\321\"<\334\211k<\264+N\274\354.\212\274@\310\204\274\364\372]\274\343?\035\275\032l\036\275t\3630\274\027\377\031=\322\006\232<\355\377\026=\223\037\340\2747\372\005=\300\270\006\275Z\301%\275\032>\330\274\200U\211;G/+=\022\342\304<\007\346!=\311k\002=\314p\000<\200\301\356\274CYI\275\240e\230\274\351\375\006= \366\256\274\200 \335\2730\021\372\273\260{\255;\0002\246\272\343\314E\2754\223\025<\327\274\036=\332U\313<c\212:=\306\245\276<\022\373\365<c\344\023=\230\275\327\273\230\256\022\2740!\254;\350E\326\273m\344:=\314\022\231\2741\034+=\014%\034\274\007\245\236\274\301\270\031=t%a\274\256\217\242<\263\237A\275\302\025\221<zl\201\274\216\244\203<\230k\301;\364\375\035<\255\017\270\274\367o\003=\003NK\275f\370\217<\300\374\300:P\006\274;\240o\251:-\306\363\274\343t\033\275\372\312\213\274\343\212L\275\206\215\305<:\267\324\274\030\030\314;\363\333(\275\000\332M\271`\241:\273\200\t\343\271@\231O\274P_\204\273\000k:\274\372P\364\274J\r\r\275\230\372\343;\375@\013=\027\3079\275`\214*;L`3<\016Z\303<\001\3767=\372\360\227\274\000\206\326\270Z%\n\275GU\367\274s\2419=\000\254V;Y\267\023=\364/g\274\272\215\233\274L\006=<B\223\366<M\254L=\032-\344\274:\027\213<`\362Q\273\340J\236\274\312\261\001\275\320-\274\2730\367\367\273t3x\2743\235\367\274t\211\030<\355y\244\274\367u2=\302:\255<\'\261\t=R\266\314<\275\300\022\275\212,&\275\375\2726=\260\277\305;-\023\251\274\234\366a<\206\273\355<X\330)<-I.=\n\351\025\275\363=\375\274\000]\022;Z4\230\274\rg!==\372:=-\324\362\274\315\204\313\274\323n\271\274S=J=\255\222\273\274s\001!=\347\261-=\203\300$=\255\t\234\274\271mA=\240\n\023;\007\335 =\230\366\320\273\342\233\272<-_/\275rh\370<g\242G\275\240\360?\273\203x\020=h\002\234\273\255,\030\275\372&\204\274\230\250E<0\311\003;\240\352 ;\'\312\337\274\256\344\340<\372\014\234\274\2049\002\275\200\0200\274:~\006\275\006\027\350<F4\273<\"\244\265<z\352\367<\315\n\262\274&j\234<\240\263\247:\023P\333\2740\260*\273\300\200\352:\\\370X<\000\220\004;\332\000\321<\002_\207<#n\030\275@\240.\275`\223&;\347HL=V\200#\275\335\272:=\246\351\360<\363\000\240\274\240\261\341:C\303 =\000\347\354\2730\205\325\273\023\300 =\2467\365<m\232\272\274\261\207&=\200n\262\274&P\210\274\222u\321<\330\230x\274s\247?=\315h\026=\240r$;2\202\273<\303\023%=n\337\276<\232%\373<\272\266\244\274@/J\275\000\333U\274}\247H=\352\231;\275\240\020\005;\242\013\306<F)\r\275\230\177V\274\300\244\\\274J\020-\275D\377\004\275\000\3709:\000k)\274@\027\376\274\320:\036\275\215\310\005\275hwC<\363\014\034\275\003\310J=\000\305\3759 f\362\274@+\234\274\320J4\275\247\302\264\274C\0378=9\360\025=\200nk\274\375\242\007=\230Se\274\231c5=t\326f<\243\031\034\275\2313 =\300\210o:\312^#\275\314\206\"<\246\343\205<\364\022@<\214Y\037<`\0073\275\314\202i<\255\033\002\275\350P\324\273F\314\220<\256%\225<\340e\312\274\302\251\226<z.\325<\"\007\234<\2646\000\274Mw0\275\223\032\320\274h\023\266\273z(\276\274\303\006,=\0003\347\274\252#\016\275\240mB\275\372/ \2752\341\225<\002X\363< t\373\274\2115\006=\275\037\034=:@\330<\243.<\275\350\217\345\273\003oL=\220\337\027\2753*<=\000\374J;\364\225\030\274\000\260,\274\250\027k\274\000\341\350;\320\336\272;2\217\324<N!\251<\032\335\262<\260\326\203;\352B\033\275\240\315\346\274\006\222\326<\355\326\354\274\235\372;=\247\217\343\274\372\375\240\274\363\221K=\275\265\003\275@\2149<\231\005\000=\272\256\213\274\240\240@;\372\2110\275]H>\275F\200\327<A\003#=m\243\236\274\2307A\274\300\356\371\274S&\306\274\000\314\016:\261w#=\220\377\016\2754\314#<\222\207\222<\246N)\275\264O\026\274\363\013I=\215\234\013=26\320<\200\376\032\275\332\010\234<\262\254\333<\000\264k:\315S\247\274`\036g\2730\225\017;7\2518\275J],\275\203\336>\275\016\365\270<\341\275B=\315D\237\274`\3350\275F>\371<0a\002\273\320\233\007;\250e8\274\207s\342\274\014\030\203\2740\314\014\273\204\305R<\330\207\016\274\252=\006\275\256\n\234<\2465\331<\330\232{\274\240\347\226:\260J\320\273\030xA<\000M\t;\3006\363\272\243\252\031\275PA\201;7l\034=\006i\231\274\260C\036\275\014`Z<\307$3\275\"J\335<\206T\313<t\307\215\274\263\203/\275\350\366d\274\260N\241\2730g\366\273\326>\r\275\263\302\021\275h\017\227\273\332\263\207<\201\332\'=\330\"t\274b\'\326<\000\020\031:\202\037\240<\350\377\016<\000\235\340\274Z{G\275`\3322\273\320\030\364\273\320\215\017\275#\362?\275\230\312\323;\247\234<=9U6=\262.\270<\200\014;\2750._;\302W\263<\230|\231\273\007\230\020=\027\305I=i\0359=\024O\203\274\200N\2369\300\214<\272J\201\027\275P\226\200;\363\325\373\274\362/\316<X\223\020\274\320}\230;\375\367\035=\300\004\256\274@\330\222\274:\007\231<\022\336\222<\001\255\010=\350\304\307\273Z|\201\274\000\246\3258\000#\0039\334\320V<\272\205\357<\200M%\274G\006\350\274\215\356F=\300\300q:g\206\021=f;\366<\261H\026=\251M,=@%\275:\356\016\223<\007\243\251\274m\276\257\274\035\277H\275\212\313\027\275P\263\207;@\341\264:\201\0161=\240\352;\275\261\362B=\350\022\236;\300\026\016\275\227q1\275-\363\236\274\350,\026<3\266\033=In\032=\2035\036\275b\360\274<@\337\336\274\260)\235\273\000\254\251:\356i\336<\030\"\252;\246\233\213\274\240s\361\274\027\0252=\207\022\314\274\364\336<<\320fp;\367\264\027=M\330\244\274\200n\306\274\264\324A<&\373\216<\300\355J<\202\222\372<\223\250\004=\240\362\335\274S\177\347\274.*\254<\327+?=\332\352\020\2752\224\353<\243\3171=\214`R<\243Z>\275\321\360G=0\336\242;\"\377\240<d0\010\275=\306\034\275\016\311\203<\307\264\345\274\r\331(=\301^\032=S\272\005=\227\370G\275\320\034\020\273@G\232:\000\363l\273\004\240R<\355\356\316\274\301e\004=\300w\311\274\200\211\3529w(7\275\2404@;\235{*=\346\266\241<\235\334\030=\372 \341<\030\354\224\273b\212\335<X\223\010\2747\tG\275\341\022\'=0a3\2750\n\313\273\0043d<\255R@=h\374\340\273\215\367\272\274\363\020B=\'~1=\355\244\031\275\263\231;=@\'\256:\272q\272<@\315\263\272\000`\305;\323\343\312\274\322d\363<\002\211\224<\230`\300\273(i\032<\014\205\036\274z\334\033\275\202@\354<\326\267\003\275\rO\014==*L\275\314\361F\274#Z =c\3066=L\035\226\274\201\242\025=m\231\023=\260\350!\275`\200\335\272\0067\206<\2150\034\275\0034\033=35#=\272^\320\274  \310\274\320@\351;-\205\026\275\230\001\344\273\320G\327\273@\263\337:&\002\230<\302\233\245<\350\"\273\273\272H@\275&\267\037\2754\210\014\275\350V?<\000\0351\273\000*\324:\326\024&\2750n\203\2732\372\252<!@7=\320\3676\273@\341)<m\207\035\275\272\250\205\274\000\000-:\232`\345\274\323\351\017\275\363o\244\274\363\331\276\274a\305>=7\256\035=\000F\034<\346P\231<m\316\231\274\260\':\275q{\"=b\334\261<\334\003c<@\t\027<\246\265\213\274\315\007\020\275h\036\327\273\316n\334<\203\377-=t<\031<\000\006\214\270\003<5\275\026\277\004\275c\326J=\014\"-\274@\346\212\274]\350\031\275\023\020H\275\272I\323\274`<\263\272\\2s<\014\354{\274M\210\257\274\272\232\310\274\306\217\207\274\320\3459\273\201\223/=\272L4\275#x.=}\010;\275\332;\245\274h|\253\273:\373\210<\222n\210<\032K\313<Z\274\262<\301\031<=tL\222\274()\003<:l\024\275Sg\310\274t\014\010\274@\351\270:\230\267*<`ok\273\250\257<<\3040V<\327\320<=\300\372\032\274M\033\243\274!Z==\355\016.=\256\314\232<\032\022\235\274\256\340\336<\222\232\373<\356C\340<\372\362\313<:\377\222<go\000=\340R\020\275\300\222\035\2740yE\275\235\332#\275\350\037Z\274\007F\001=]\376=\275\372\n\335\274v\231\'\275\266\250\024\275\000h\353:`\246\321\274\332*2\2757\320I=\342\271\370<g\224;=\342\307\354<A\222\017=:\341\350\274\335\3421\275\332r\243\274\023\2068=\362\007\303<\220\372!\275n\223\242<\335\224\013\275\251\016D=\032]\'\275}\026&=\266=\020\275\027\234(=\375\267E=\230\006%<\'e\314\274J\203L\275\227\265H\275\332Z=\275\206@\n\275]\251\022=\000\314\240\273\200U\310;Ys?=0r\n;c\273\023\275\247E\333\274\324\245\221\274\212\306\032\2750\377\032\273\340\376\021\275f\334\221\274`M8\273#\365I\275\023\\\373\274S\"%=:\031\331\274P\325\227\273PC\246;Y\337==\316\206\355<\247,#=\204\212R<\027s@=h\330\220\273\220y\t\275\364\260p<\232\334\242<\251\n7=\n\235\007\275\003\021+=\372\241\306\274\321\256\037=\350W\316;\246\234\027\275\230\327^\2740\315\206\273\332\213\265\274\355\365\326\274\364J\201\274Q\210\007=\242K\325<\262\024\250<\362v\357<\250\347\007<\243\336/\275\364\233k\274\340\315\316\274cN6\275\0142s\274\315\220\302\274\247\3712=\27572\275\230\246\340\273=\221\020\275\032Q\316\274\200o\252\273\355\373\362\274WB\026=M\353\036\275\206\333\303<\"\215\232<g\276\302\274\r\3310\275\254\026\211\274\022\321\313<\363\202\254\274\230\247\000<\232m+\275r9\231<m}<=\246@\322<\t\034#=\330\315L\274\362H\302<\263,\267\274\350\'J<\355\377\231\274`v\236:\207\230\356\274@y\375\272\2001\033\274\302b\256<\212s4\275\002\267\362<\007\241\276\274@\'\034\274\215\017@=\200pE\275\3641\'<\032\027\212\274\252F\034\275\250\034\036\274\030\260\227;\250\225@<\r<-=\300 \323:`*3\275\200U\260;\246%\240<\323\307\r\275\260]\220;G\314@\275\000\3173\274\271\321+=\006\332\326<v\265(\275`\330\232\272\230\266\013\274\3239\010=\000\230\371:\200\370\014\274\'\2774\275\256m\211<\372\362\330<P\016\340;\315 )=\350\235\366\2737T\022=L\331\024\274\342\345\202<a.C=\223\211\354\274\016\322\320<\230s\350\273\206\235\216<\235\2526\275\335\320\022\275\275\255\010=\224B\213\274\207\360\327\274=\213E=\375\304A=\200\325A\272\204_a<\212a.\275\355-\312\274\216\353\265<\016\343\225<0\231*\275\330\2403\274\200\006\353\273C|\026\275\264\367}<:A\237\274@\323\367:\355\027(=\323\204\340\274F\264\025\275R\t\366<N\261\256<\240fH;\r\2670\275\244\"k<0Y\035;\351k4=\030\r\225;\346\332\306< [\021\275s\027\010=-\236\006=\320\235N;P\313\200\273\335\2452=\"\225\312<\272m\233<a\354<=\343\273\003=\221\3006=\214h<<ZL\350\274\022i\221<\023\322\350\274\200\317\241\274\240{\315\272\r\030I\2754d\000\274\3206\025;\312\266\017\275\340\253\342\274\300$Y\2720>\247;\362\021\301<4t\022<-\2259=\247S\321\274\207\2710=\200S\264;0Rs\273\232r\242\274m\315\032\275@3\022:\000\365\304\273t\356i<\207\342\017=f2\377<\372\210\245\274\335R-=F{\245<\231\216;=CBC=f\311\266<0\357s;\2019-=\332\247\243\274\327\351K=W\337D=\246\333\000\275\215\242\024\275\"\337\366<\316\025\250<\032)\271\274\275\364\032\275\000g\336\274\260+\372\273\332\036\257\274\242\264\226<\375\260\000=\241HD=\214\321[<@?\261\272\026p\036\275\363o\247\274\302\314\320<\362\246\372<\266Q\004\275\267\275*=3\241\000=\035\210\002=\021=@=\215t\275\274`\313\003\275\264\225m\274Ff\252<\214!F<S\3038=\347\375\311\274g72\275\356C\362<}\226\"\275#\333\036\2750\335\243\273\320VG;\323>L\275\275\231-\275\223U\016=\200\363\315\274\350\t\026<\256%\357<\211p9=\001zG=\352\244,\275\215\324\323\274\322\016\211<\267\352@\275\314\265?<\324\320\212\274@\'e\272\220\244H\2750s\300\273h\3317\2744\3219\274\355*\262\274B\333\377<\"\202\336<\2008\354\274\332n\261<\030\270\302\273PW\210;\023\275\r=\000\035-\273\r\214$\275h0\334\273t\245Y\274=c-= ,\335\274\030\033\264\273\322\033\345<\362\007\327<A\262\004=\014Q\006<02,\275\003_\000=\000\001\010;\312\\9\275\264\353u<:v\342<\032C\365<\300$=\272\222E\252<\323h\360\274\2308\310;\000\206\322\270Pi\323\273\300\017\014\275\223\'?=\362|\330<$\336f<\314}~\274\240Y\223\272z\344\371\274\252\337\002\275\302,\345<\347@\303\274\307*\354\274\035\020\014\275-\317\237\2740\242\364\273\006Z\216\274\372\371\346\274\272\377\374\2743m\343\274`F\357:\0046|<\303`4\275\264\004\'<\232\213\227<\355\013\035=G\360=\275\272\347\203\274@\231\r<}\3648=W\2119\275\300x*<6\031\027\2750\374\342;`\207\036\275\362I\343<=-A=P\337\326\2733\214\023=M?\301\274\332~\267<\035\277B\275\350\025\205;\275\004D=I\0024=\200\363F<z\226\235<`\242I\275L\001N\274\\6g<t\374;\274\016\370\272<0\377*\273@\371\013<\346\244\365<@gt\274\304\020N<4\221*<\323\r6=\341Y\030=\030\227\204;\246O\236<S\220\352\274\364\326t\274\000\337H\2754\313\020\274zuL\275.\205\264<\323\236!\275\314\3006<M3!=\362}\301<\2235\246\274\000p::`\252\037;\267\315\032=\344\301c<\355\347/=@\257)\272Z\274\"\275\000\345\360\2733\tB\275\200\3461\274z\307\376<\000\317\246;\014\177\035\274X}1\274\362\273\253<\r4\234\274\226\t\016\275\363K4\275Z\227?\275\306i\254<\200]\234;\214ko<\221/-=!Z\026=\007\231D\275\264\367\034\274\'R\241\274:\032\277<\000P\3279\307\310\003==n\006=\000\230\2647.a\202<\240*\003\273w\270C=\000&\230\270\000B\312\274\240\350\250\274\232\303\246\274\t\344\030=\375\212\014=m\275\350\274\256\216\277<\350O\373;&\342\307<\252\'\002\275\006?\313<1\355,=0\334P\273\332\005\251\274Z\321\320\274\207\232\263\274\321\004\024=\242m\221<\247o=\275\020[\n\275\315\213\001\275\250\"1\274\3725\257\274Z\314\344<\204RZ<\000\365\346\273\331\367\017=\2428\360<\235JE\275\316\025\376<\261l\024=\372/\022\275\324z\002\275$\333T<\230E\353;3\266\020=\241\006\007=\000\300\260\272\300aK\275@\212\022<]<L\275\035\336\034=\300T2:@:\346\274.\201\300<\000\317\215\274\244\300w<m\250\333\274Bn\202<-\177G=d\003\001\275\030\022\232;\000\354\363\2743\250\350\274@\307$\272\262I\330<\014_C<\303\263\032\275(\037?<\203\2379\275` \221\274\027H#=X\363o\274\344\256\000\275\334\251M<Pr\306\273\316\264\370<(\3064\274\226\326\023\275\002\217\246<\264Aj<\351\244*=\300\334P\274`\270k;1\276<=\000\2264\273\200\333\234\274\326\007\"\275v@\010\275\300\202z\274w\020\025=Gw\372\274qQ5=`(\022\273([\'\274\303y\032=\207\356\303\274Y~\017=@\"\004<h\202\243\273\000\226\020\2713\273B\275\375;\014\275\000\312h;G\333\320\274\000\334\026\272`\333\326\274\223\2235=\211\242D=\272xL\275\372\310\201\274\356&\207<m2\347\274\320\022Y\273\206\227)\275sm(\275\300\320\255\272&%\224<q\252%=\200\343\377\2742\350\370<\214\264]<\260\371\303\273\251\317+=\200\027\315;M\005\000\275\023w\327\274\307\266J=\022\034\257<\200\341e\272\203\342\001=g\200\002=3\3335\275q\226\005=\266)\t\27502\357;]\021\035=`\246D\273\023\234B\275\350@\n\274\303;\r=\000\334\035;z\274\240<\250V\013<\331\216\036=\000\223\013\273\250P\t\274\363\342#\275\235\310A=\366\215\026\275\346\300\217\274@\215\332\274\250\345b\274\272\006\256<P\200\346\273\307,7=-\3718\275\314+#<:\236\363<\000\030\243:\302\340\347<&D\271<\240{H\273\000\005\325;\240\036^;\247*8=(\363\022\274\315\266\307\274\003\334\026\275\000\333\005<M\005\267\274\202\330\226<\255\177\327\274\367\3452\275(\257.\2741\311\031=\307o\267\274\000\265X\273\372}\260<p\243\001\275\n\274\023\275\240u*\275\000\300,\275t?a\274\2620\246<\000\360\374\272*H$\275 \323\314\274`\250\346\274\214\370\'\274M\035\264\274s\325\355\274X\361\030\274h\322g\274\0032>=\304\274S<hK\342;\231&\n=}\265@\275\2008\262\273\240\0224\275\000P\213\273q7\022=\343\035\034=\272\344\306<`\216\203:\272\025\331\274\256\336\256<\315.;\275\206d\000\275:l\354\274\230\002\231\273M|\255\274\032K\205<\023&G=\327v>\275s\223,\275t\364\212\274\362\220\323< \263\036\275qF0= x\303\274\231EL=\344\323R<S\324\037\275\330\025\013<\027\3123\275\023\363\277\274\363\263#=\263\336\361\274s-\030=f\217\304<\323f\367\274\223\3772\275\247\200\005=XFG<1\020:=`\311\323\274\356\025\247<b1\271<g\0226\275\2623\336<\356e\332<Sh\016=\347,\270\274\207\303\340\274\275\342\003=:\023\256<\027\017@\2759\313\033=@\333\207\272\330a\004<\240]M\273S\r\347\274\000+\244\271\367\357\r=\350\204\352;\346\306\200\274sSB\275\200\321?\272\020\313\006\275\346D\212<zo\355\274\352Z\024\275\332W\314\274m\227\276\274\000]\035;]\314#\275\000(\030;!\300J=@m\273\272\332+I\275\006\324&\2753\343.=\221\3654=\242:\320<\215w\237\274\246\276\205\274\355#\035=\026=(\275g\031G=a\237\t=Z\262\304\274\340\026\303\274\230\024\335;h\336\006\274 o\035\2750\026Q;\367;\032=@\377I:\030\232|\274g\233#=\306I\344<M\000\254\274\260\240\264;p\356&\275gQ,=6n%\275\003\033+=\202/\301<j\003\025\275r\033\323<\275\342\017=fD\032\275\240D.\273\223%\304\274\320|\310;s\3209\275\215\310\260\274\361\010B=\252\333D\275\320B(\273\264\361\001\275I_?=\235\206\'=\240\260Q\273(6K\2740EL\273r\225\270<\002\350\226<\214>x<\001\363+=\'\024\344\274&\264\003\275\256P\364<gi\245\274\'d\240\274z\020\226\274\261\202\000==i\001=@\307\231:\362\373\310< :\237\274\002\242\230<\0222\367<\200\025C:\320/\004;p\224\002\275\240\347\253\274\200\232H\275f\314\014\275\332\n\226<\014\356\217\274\240\024\010;\255\016\023=b\247\232<\214{t<\"l\335<\240\223\334\274\000Mv\274\300\274|:\314PO<&&\251<\232\t\235\274\022\242\210<\315\\\365\274\000q\027;\2471;\275\300\310\023\274\030\273\037\274i\254\035=\314\024r<\335\262\020=\206\361\257<\340\267\304\274\272M\274\274\340\317\346\274\006\234\366<\343\211F\275N\353\200<&:\221<\344]c<\372\017\364\274S\235\260\274\000\304\272\273w\274>\275\235?;\275go\005=-\2024\275\354\243\202\274(\216\023\274\007\006.\275\360\244\007\275\016\204\305<\263v\t=\000J\273\272\320\307h;\240\332b;\007\311>\275\263\035!\275\022B\244<]\223\031=L\373|<\200T\232;hF\356\273\320\005\333;M\214$=\030,\000<\230\037\361;so\004=\364\344O\274\350\372\343;\356!\254<\023\335\366\274\364q\225\274\342\211\303<\272\356\026\275\323h\367\274mL\t\275R\326\365<\000\277~\274\346\363\266<\330\205d\274\023\2055=\240\343l\273\320m\224;0p6;Z\361\307\274\340N\321\274\000e\027;\200\0013:\340.\247\274\323\353\017\275I8>=\360\037\006\275\247CA=q)3=\367\2345=L\005i\274\000\203K\274\350l\340\273\332`\225<\006W\267<`\276\005\273}\3641\275\221s;=\t\034(=\006\003\022\275\320b\304\273\352\2730\275\000\232\202\274-\314C\275@gk\272\t\312(=\250\236(<TA\t\275`\304\006;z\253\206<*\222\001\275\200F\037<\206\362\001\275\242A\320<PT\350\273=k#=\006M\321<\355\210\366\274F\226\370<\275\236>=\272\262\266\274-\322\023=S6\241\274N\206\314<h# \274\016O\347<PW\311\273h\341\261;\300\372\367\272\221)I=Z\030\360\274\266\022\023\275\023E\245\274\355-\025\275\000T\026< $\014\275\255\275A\275`\225];\200\375\312\273\035\251,=\340*\233\2743\305:=Z\323\007\275t4\000\2747\243\n=PN\275;d\266w<\264\367H<\240w\236\2724xu<\250\tE<\203\342F=4\243%<7\210.=zU\310<&\347\022\275\006\272\230<3\334\262\274@o7:\000\371L;z\005\371\274B\351\362<\252\300\'\275\364\247\004<Lb\'\274$\235t<\330\243 \274\350Q\240\273\314+\037\274\240\t\270\274\006*\347<\250\3512<p\224!\275`\251`;NB\274<0\317\376;\306c%\275\030\033\270\273!\3670=\367]G=\t\204\034=\014\033b<pF!\275z\\\237\274\200\245\264\273\200\2627\274\301\\\006=FE\365<\350\2023<\020W0\275(\242{\274L}\216\274\255\313\024=\000\351\225\273\026\304$\275\000`\202\273#yE\275\203-\014=\007/H=\221q\017=\000\276\302;\316@\353<\332D\036\275\000\375v\271\230\200S\274\346k\344<c\356\n=\023\3041\275tO^<\255\275L\275\341\256 =\247bL\275P\210\320;\315\333\372\274\023\376\365\274\0309\226\273\272\304\266\274f\234\225<\364\216n<\2418\r=\000\313\312\273\243\2408=\243x\r=\320g\360;n\037\207<\202\271\205<\343=>\275\t2A=\300V\373:@\033\276\2740\242\352;\0327\374<\240\n};\240\330&\273\200\036\250\273z|\331<\322\271\332<4B\"<\252\334\004\275`-~;\224\272\202\274\"\240\210<\035\302\013\275\351v\000=P`\212\273r\253\306<r#\372<\250\006\036\274\027\024I=\206\377\222<S\213;\275f\312&\275\355AB=\346`\023\275Zu\302\274\247$\"=\264\037\\<t\274l<\023e\373\274\212\373,\275\021(\020=\2008\004<0>\006;\000V\t\273Z\267\213\274g:)=\320\251^\273\272[\241\274N\226\325<\200rH\274\240\356O;\000\372d9z\'\204\274a3(=\'\255\347\274\3725\026\275\200l\363;\247\265\256\274\247\312@=\300\251\032\275\006\210\332<\006\323\027\275\007\267\021=]\355\010=\240\224\232\274\346\254\222\274LQ(\274@I\311\272\240}f;r\217\201<\200\207\274\273P\376\215\273\315z<\275\000\331\177\273\200J\t<\351\013L=h\256\016\274\261\202L=\350\367+\274\'\333\361\274(\"r\274\320\245\305;\000{\037;\350\207\370\273\022\344\257<0\254B\275r\025\273<\000\361\233\2740tP;@\307\303\274\322\316\305<\000#$;\243\004)\275\215\374\327\274Xk\016<:4\311<\326o\002\275\030\007\221\273]\273E\275\375\2500\275\306W\313<\322\322\245<\nS\t\275\262\304\327<L\237(\274sQ\362\274:\247\364<\"f\275<\323f\300\274\332\356\367<ze\214\274f\314\231<\227[0=\001\032\027=\240\020^\27303\251;\r\010\025=g\260J\275\350~\274;g\2758=\035\246\025=\240&\256\274\314\027\030<\311\010\022=w\013K=\364\2405\274\007[\354\274\000:\356;s\220-\275#\372\027\275,\225\220\274\322\010\225<0\264\352;z[\222\274\344pX<\356\220\301<2J\207<\000\020\203\271\320\326\232\273\"}\306<\271\263I=\r=\255\274\006\356\211<\363\220\317\274\323\241\372\274C\251;\275\235w \275h\274\316;p:9\275s\264\307\274\252\360)\275v&\030\275P\303\375\2732\250\342<\203kL=j\357\014\275\223\374@=\006D\023\275\312\216C\275\342\216\227<\323\347\376\274\301i\001==\3703\275\030\352\354;0a\243\273\202D\201<`h:\275\240,\356\274\350\205\216;i\354\004=C\3221\275\000\201\236;cJ!\275\014.\207\274\246\177\202<h1w\274\"\002\311<:\235\304\274\371\021\021=\350\"\211\273\023\343.\275\300Z\335\2722\327\335<\264\374]<\2472.\275\307g>\275\000p\004<\204oi<q\277J=t\336\034<gE\362\2742\324\210<\307\301\251\274\300\000\032<4\320)\274\"\034\204<*\325D\275\030\306H\274@!\242\274\362,\323<\372\214\324\274\301j\037=\341!E=\367/\013=L!e\274\3641d<\320\220\377\273\240D:;)\2554=\006:\233<\247\345G=\344\331M<mH%\275C\032*\275\322\344\310<\255\203\001=\335tL\275\264\336\021\274\030\366\273\273`\357\305\274j\356\020\275\202\213\267<``\346:\360\311)\275\320\244\336;\007$A\275\215Q5\275@\0229\274\320Gi;\362\374\310<g\311\372\274\000\243n\271\023\227L=\303u<=P\234\302\273\264\260l<s\327K=a\217\034=\343\3370\275\247D\257\274\"t\251<\r\313\330\2741\030\031=\272H\372\274s\373+\275\355\002\352\274z>\257<\261t\010=`\344\324:\363\024\242\274\\6l<\256\r\247<\250T0<Fy\333<\"\364\322<\000\203\302\2730D\313;gA1\275:H\266<\272\353\207\274\334\237h<\206\"\230\274\206L\010\2756\352\016\275s\2441=\007\353\005= \216\030\275\323\247\231\274G\263=\275\367qB\275\235\301L\275\372s.\275\"U\251<\262\215\377<\000eT;\031v\035=\302\232\313<\023\261\264\274\000\316\370:m\373\231\274\272\002\300\274\262\310\260<G.\375\274s\264E\275Pz\273;\350Q\345;W?\035=\002\256\235<-K\354\274\334\242x<\260&\250;\242)\310<!]?=@W\253\272\\\210j<@\301\336:w\356C\275\214/<\274\000 O9\324M\202\274w\275@\275\214#x<\206\212\301<\007t\360\274c\376\023\275`\325(;\255\326\024=\000\200\031\275\320\313\031\273z\002#\275]\3302\275\355\243?=\214;%\274sC+=R\300\203<\350\262\252\273V\327\001\275\024\010\220\274\300Ug\2740\0354\275\372\017\262<hj(\274-`\305\27400\034\275tR\001\2747;\021=\260M\253\273D\206p<\340\357\230\274\264\021q\274:\350\014\275\0069\010\275\215=\317\274`\r\227\274t\276\002<\314AW<f$\207\274\346\314\"\275\271:\021=\222U\222<w\346$=\364C\037\274\332\371\315\274i\026&=\241\375\020=\372J\373< \r\271\274\215U?\275\250\340g\274A\233 =\321\313+=}\n!\275\000\312\010;\300\3061\274\215)\244\274\332f\237\274L\214&\274a\3133==\203\026=y\215\027=I\316\n=\030\021\330;(\244^\2740\257W;\355\342\362\274S\377\035=B\006\360<\307\334.=t\301$<Sy\003=s\2617\275z\n\313\274\214\327)\274\262\252\257<\240X\317\274\3006D\275@\036\002\274\000?\316\274\240\262 \275\364\027@<:\002\206<\315\242\322\274\2609\303\273\247\306\305\274\307~\320\274Z\274A\275m\232\002=\000\324C\272mO\323\274Z\253\343\274\000\273\302\274\004.\014\275\rB\t\275\255\240\006\275h\362W\274\261\356\n=\200.s\274\235\373#=\020]I\275\000s-;\322\353\267<gi9=\340`\034\275`\2224;\320\020\031;@\016\031\274WLG=\315e\250\274\227`8=\300\244\224\272\327;8=SAJ=\260^\006\275\032\262\226<\355>\356\274h\270-<\314.\017\274w\2469\275a\363>=\230_E<\323\246\252\274\3428\212<\214\246\033\274h\231\352;i\373\032=\360H\n\275\300d\255\274\002R\302<M\333\031\275c1A=y\364\006=\000\275\317\274\314\205P\274\25527\275\014\200b<gn\350\274\214\353H\274\262;\365<\030\253\255\273#\037\022=\307Q+=\rA\034=\341\030B=\314}N\274@\354\004<\216c\241<\'\021>=\000\013\244\273g\360=\275\314\025%\274\260\301L\275\360\014\001\275\334\\i<\355\337\363\274\303\'3\275`\320\177\273\223\212\343\274\242\253\206<\372\303\006\275\303^\022\275\340\363\366\274\030\0247\274\000\264\222\274:Z\365\274-X\r\275\246u\241<\3116\004=}\277!=\314\246<\274\002\231\212<b\013\306<\230\302*\274\262~\263<\275\254\025\275@\274\013\2743\\7=!D?=\300t\034:\261\2327=\255+\004=\3158\'=.8\336<\306\t*\275\307\241\333\274\346C\367<\362^\265<\255\000\'=\323E$\275\250\177\'\274\035-;=\000\256\315\274\235\314;=7\200\010=\200\235\240;L\260\r\274\264\022-\274\303:\025=\231\234#=\000\344\271;\264\370,\274a\250\006=\363D\364\274\340=\235\274\020\316K\275h&\355;:a\331\274P\014\032\275\000\024>\272\355\r\322\274R\330\316<\'\306\256\274S\223\032\275\000=)\271q\342@=\300F\250\272\240\271\233:P8\240;\'S\332\274\322\242\216<\372\361\004\275\0161\230<\306\336\003\275\230\350\242;\000\022\337\274Z\342\214\274\240V\340\274\200\007\320\273\320\316\267\273\200\036\3319\326N\026\275\030\373!\274MW0=\021\300\"==\021$=\263\340\376\274\307\3513\275 ^\035\275\363U\337\274\331\314,=z\363\331\274C\353:=\020\3402\275-\0016\275\320\027\037;\200\213j\274\014dX\274\r\203\251\274\220*+\275`\307\023\2732_\336<]\320\037=LZA\274\027D&=\275\227%=\200\363\363;\367t:=\375\014\010\275\364H\007\275\003\334\006=\363\274\031=`X\203\272g\0373\275\252q\t\275g\207\264\274\320\250\031\275\206]\262<N;\313<z\350\364\274\026X\r\2754\027[\274L\266;<d\377h<@\017[\274Gb =0\200\303;c\277&\275\247V\010=\360\312-\275\264\305J<\351\2331=\232y\235<\230\372\267\273\207\330<\275\263\263\375\274\307\305\333\274\300\326;<\000\177$\273PUA\275\206$\034\275h\3211\274\201k\003=2\022\377<\243I(\275\200\327\035<\320\037\242\273\320_];:]\350<g\231\375\274Z\363\363\274\263\220\246\274\343L?\275\244\276j<\203\337\031=\006\332\341<\027\267D=c\202\017=\214@V<\355\204\346\274Y\225\r=t\030L<=\2177\275\214\357\002\274n\252\256<\246X\342<\350z <\364\314\200\274z\'\276\274\264De\274\'\222)=\203\262G\275\311\376\037=\026r\022\275\240\224\264\274@J:<\027XE=\364\3658\274\215\243\231\2749\0328=\346Y\323<\323\212\374\274\232a\374<\331B =\350v\222;Mb-=D\347L<\247\345A\275\023\321F\275t\357\'<4\033\033<rj\270<\361\343\014=f\312\236<\000\000\020\270Mr\002\275\014\317\203\274\307\034\343\274`\036\233\274\241\226\037=\356\331\372<\346\316#\275\221J7=\256\036\263<3\302\251\274-\001\312\274\347\t\300\274g\013\307\274n\r\251<4\374|<\311\354\001=\355\004\004=\3047u<\272\034\252\274\262q\247<\356T\303<]\2518=\203\036\010=\006p\t\275\2609\247;\240!\212\272@97\274\340\253F\275\260\301\340;\243\320&\275g\324\036=:\276\316\274\235~\035=\320\205\336;\'\2342=\232!+\275\242\312\200<z\245\206\274\230\260.<Zn\274\274\324\362\223\274z,\351\274S~\237\274Z\3159\275\330\303F<\320\240s\273h\010)<M\300\035\275 w\006\275\267\3430=0\013x\273$^j<\322-\360<hU2\274\360\366\017\275h\261f\274\t+\022=\350F{\274\204\367Z<\014\0024\274p+\004\275\327\2209\275\266r!\275\227\243:=h\253\260\273\240\017Y\273f`\206\274M\001/=\364\016\212\274`Fn\273\t\010\004=\340O!\275=\211\000=\230Q\236\273@\354\021\275\262\274\212<a\025-=3\205\266\274m\354\307\274tS_\274\240\323L\273,I\220\274\243\3053=\272\023\255\274\206\021\263<\2352\035=\267\005D=s\316@=\346\242\251<\000\324\251:\367\360\004=\267\204\n=\314\232z<\230`\301\273\006\334\235<\206\226\216\274\362R\207<\335\262\021=\264\302r<\'\217\023=\242\300\350<\204\315T<\330\002%\274$OR<\3202\347\273`\221,;\203\221I\275\302\005\257<`\233f\273\343yJ\275\000\217\313;\200\235U\274mO\335\274M\035.=\344\241t<\027\216\022=q\036\021=\200\001\274\271\214\014c<\264\2743\274\334oX<\003x,=\230!=\274\260%\263\273\321\206K=\326>\025\275!\217/=\256\366\277<s\224E\2750\237\240;\032/\311<M\000\037=`\202\205\274\000\001\365\273\260\r\237;`.\017\275\226\203\033\275\231\035,=h\230\317\273t\323C<\000\352i\271\035\254\002=-\214A\275\314q\002\274\000\372=<W\2109=0^\210\273\250\261\007\274\320bK\275f|\033\275\r\222\023\275\214\2640\274\316\307\370<:\320\t\275@9>\275\320\245\333\273h,@\274\306\265\225\274\272b\225\274`2\221:X\331\n\274\322+\275<\255%\240\274`\222\017;\035\333/\275\364\241~<\034BS<\000+\311;\320~9\275C\351\020\2750\204\315;\227\214-\275\'\256F=0\036 \275\032\215\243<\000k\347\273\200\375\242;\031}\005=\014\276o\274v\267\014\275\275\311\023=6\253\037\275Z\036\355\2740\246\266\273\372(\326\274\000\027u\273W\352A\275X\364A\274Y[\n=\000\235\037<\332N\303\274\332\332\020\275\206^\036\275\300\356Y\274BU\355<\332\320\331<s\'\261\274S\255\255\274\030M@<\263T\r\275`\251\n\273\300\333\006\275&\322\247<y\245J=\204\371q<}%\013=9\377;=\207\214\343\274\303\375>\275\300b\335\272\301r\'=JfB\275\014\357(<\350h\000\274\222\\\337<#\253-=\364\275~\274\200\026.\274\311R\005=]\3138=\332\267\272\274l\324\215\274-@\344\274}\340\003=\326u\021\275q\005+=\322\235\354<6\303\033\275X\203\005<\362\337\372<\254\227\214\274\212f8\275t\262\001\274\350\337\220;n\326\367<S8\260\274\300\241C<\263\367B=\232$\215\274m\300,=mO\356\274f9\246<:f\367<=\206\026=0\177\305;\300\3552\275Mg \275\032\237\377\274`\033\374\274\350\226N\274\222%\320<\341\254B=\2751\r=\226\265\"\275s\013:=\004-X<S6\262\274\320~W;\320\321=;\275\211\032=\232]\226\274\320!#\275\200\221\017<\000\304\324\2732\342\265<0\330\001;\364\250u<g\211%=0\241\247;4]\000<c?5\275\272\006\321<h\374\241;\300\266@<\224;\230\274J\251&\275\264\2665\274`|s\273&\263\222\2743\370\031=\212y<\275\030\250\031<-\360\032\275\320\033\330;\330\215\002\274\034\'O<\000\017\321\274\007\005\r=\3235\333\274\251\243A=:\226\303<\0004{\270ZA\376<C\006\022=j`\000\275\347#C\275\260;\241\2730\341`\273P\243\240\2733\344\353\274\232\214\324<\200\351\030\274\300a\032<\306\237\211\274=E\010\275\320<\331;`<\361\274\250@\033<\320\\\300\273\232\203\372\274\256\247\346<`\200K;\230v\363\2734!S\274\332K\250\274\307\372.=\315\'\r\275=i%\275\002\341\330<\251\017D=L\225S\2740\232x\273\300\2220\275\030\304x\274G\021J\275\207\354K\275\372\366\223\274\375S\020=\372\r.\275:~\336\274f\350\311<\362x\217<N,\360<L\206-<\343N+==\346\024\275\022\035\313<\260\321J\275\022\323\307<\006\306\377<\346j\367<\023,<\275\340\314\004\275\332\266\374\274-\212\304\274\030\t\313\273M\367\371\274)\253\022=\364`L<b3\242<\356\201\357<M\'\236\2740C\265\273\000?\005\275\332\017\271<\215\361\024\275\275\300\023\275\363\265\377\274\'\262>=\000\270\316\273\375\266\022=A\027\034=T\343\002\275\240\374\307\274\2402\222\274}`J=\026\342\036\275\260\201\010\275\014\337\014<\030Hc\274z\001;\275\227\207J\2753\266\302\274\240\256\352\274\246\364\"\275Dws<\347\262\256\274&f\204\274\t\215\005=\303\002A=\203\240I\275)\245>=\255\342\004\275@\351\340\274\340\333\306\274\343H@=\312\0065\275\320\276\362;\332\262\213\274\340\236\277\274\222\210\256<\014\376\016\274\230\365-\274\332\312\032\275\315\231\036=$\307\004\275n\003\217<\2560\227<\375\026\026=\341y\023=\322\220\332<\000\3249<\303\343\024=\311\201B=PG\340\273\214i\226\274\375QF=$\005\\<\303\307\013=\263w\331\274\000o#<\023f\033\275\\\227p<}w>\275\355oA=\314\233\\<y\307\n=\032\326\262\274D-Q<\354\374\227\274\255\013\330\274\331\325==3Z\005=s\316\303\274\240\253\273:\346}\201\274X~$\274@\237\001:\000L?8\260\322-\275\030\223\364;\001\260>=\334Qa<\000\336\363:F\201\204<\240}\361\272`\367@\275\\Q\\<\315\2042\275f\002\023\275(1\'\274\000\3659\274Ih%=B|\333<\030\270\304\273\n\363F\275\372B\016\275\032R\234\274\320\317t;\001\235\"=\216g\267<\232x\226<@\375\231:\203\327\t=\003C/=\355\373B=\007\r\257\2744\327.<]#-\275\256<\356<)\030(=\3552\337\274\214\2374\274\221\377\014=mA\252\274\331/,=:\230\345\274!\'\021=\240\363\326:\260\311\375\273\307\204\337\274#\274)\275&\332\221\274fc\207\274\032\322\310<\003D0\275\200\037$<\004To< <\036\275\240\3326\275\3400\031\275\304L`<(\377d\274\300\237\355\274t5q<\234\351o<\246a\232<\375Y\014=\242I\366<\220[\005\275\311,J=\343\0068=]\252\033=]l\023=LFC\274\363\377F\275ye\023=\354\224\227\274\262C\215<\007\343H\275\227\\>=B*\267<h\351B\274P\366\326;\240iI;\240\\\350\274hf\327\273t\177\177\274\214:+<\000\2202\274\346\307\200<7nE=\240\005n;\214\300:<@\231\024\274@g\005\274\315\t\256\274\344\347T<\000\252;<(\025&\274:\330\326\274m\376\250\274@U\333\274}\004\025=\332\320.\275`\356\214:\372;\363<w\3402=\320\320\231;t]\n\2754\243\021\274\014eN\274\323\217\235\274\030Y6<\362\211\310<\303\226,=\035}/\275\000\257\010;\000\343\361\271\023\333J\275\371\1771=\350c*\274P\326\225;\255/\360\2747Z\036=\007\262\363\274\247\274I=\032\314\034\275\235s#=\014\3250\274\350\316\276;\0000\032:\032\305\270\274\272r\255<\362]\310<\260\235\356;]\307\036\275\367\337>\275$\317h<]\320\022=W\242\003=\255\256\333\274Luh\274\35024<\030\263\273\2730|G\273\307\347>=CjD=\306\264\200<\262<\272<2z\214<\350\210\357\273F\032\356<-\004E=s\331J\275\035^-\275\275U\016\275F\247\205<\306\336\337<0\020;;\327\304\002=\316\223\221<JKI\275g\354\320\274\302.\206<\327\327\030=w92\2750\343\202\273\2444y<\016\303\340<\260>\357;0\300>\273c\241J\275\00792=\320\365\036\275\r\240\031\275\362\250\205<3D\003=\231c)=\223\3729=\203\313\023=M\273\357\274\000\004\353;cm\024=\323\033\302\274\314g\t<\320\237*;\030\225\336\273\230I\273;\264A_\2747\244\013=\314\353%<\262R\264<\020\372\025\275\264#!\274\000+\030\274\315V\350\274#N%\275\nE\022\275\035\276\t\275\300\234\372\2744\3509\274\000L&\275N\345\332<\004\rn<\343V?\275\344\355r<\330\031q\274\256\037\303<\300\361\t\275\200\302A\274dKr<\240,\022\275\252\333A\2752\250\250<\014a%\274\312\216\n\275\240\277\222\274\006\261\262<)X\024=\364\220\022\274\300\341&<\350h\224;S\371\354\274\"\376\300<\027\273>\275\2712,=\r;\002=\200i\026\272@\241\312\274m\034\321\274\n-\027\275\200\223\r\274\272`\203<\032\231\274<\032\201\007\275\356]\376<P)\325;@\353\203\272\211\032\025=\035\027&\275\240z\200\274\030a\222;(\333\007<\372h\361\274\320\342x\273D)U<\240\251\330:\332\021\010\275h\256E<\264\313)<\347\272\357\274\032v\260\274\327\007:=\203~\021\275\000\000\321\271*\\*\2750{\331;\014XZ\2744*N<\rb\034\275\332q\322\274\200]\032\272\200R\221\273\300\344i\2743Z\327\274\243s.\275}k!=0m\275\273\300[\342\274\000\347\371;0D\263\273},5\275V\252\030\27579K=\226\205+\275\327\3422\275\332\375I\275@\231\010<\300\200#\275t\205)\274\230\020@\274CD$=\355\373\t\275M%/=\007r\345\274\223\312#\275\366\257\n\275d=j<\272=3\275\255\2177\275\323\216B=h\205\370;f\273\027\275\356\n\314<\026o\024\275S#J=\200\371\323\271\355\013:=Zm\225<h\\\211;\300\304\001\274\016\016\347<\256\244\236<\022\220\335<w\t8=\300}\002\274\014\3241<Zr\230<P\266\237;\n{J\275\000\307t;}=\014=\307\361\374\274s\021\031\2756\372+\275\316\002\220<\364<\034<\022\244\302<\000i\313\273\306B\232<\023\260\234\274\022\312\254<:<\303<4\2575<J\315\000\275\322\201\231<\342\373\321<\212 G\275\212\030\037\275\207\016L\275\2505=<C\006\005=F\375%\275\035\237\016=\240\302n\273\367\022\037=\240\333\226\272\34707\275\242\237\215<\306\000\214<\232\r\"\275\320n\362;0\036\022\273X}4<\371g:=-\034\014\275@k\237:\211U2=\303\312\n=q\347==`\374\350\272\223P\023=\024g\007\275\372\213?\275n\034\322<N\366\216<\024\026\231\274`\356\322:\331\021\037=s\212\324\274\247x\031=\263 \326\274\340\353\204\274\300>A\275W\000C=\347\031\261\274\300X4:\362\317\203<s\0209\275\232M6\275\241%\r=\260\302\006\275n\260\327<-\247\341\274\341:\035=\330\364?\274\356\310\205<\320\233|\273\300\214)\272\331\305\013=d\035\000\275)uE=\240\302\013\273h\266.<\330\310\010<\r<F\275\320\252\024\275\230\276\320\273\3153\277\274z.\032\275S|=\275\000@.\272=\020\031\275\031\334&=\250\024\037<\350$C<\246\273\013\275\363k\241\274m\305\033=X\204E\274\023\372\025\275\247F\317\274\320\370L\273\r\214\253\274A\316D=\232d4\275\207\254\031=\000\231\003\274\200OJ\275F3\211\274:%\352\274\262\273\356<\307\243?\275.#\233<R\360\251<\346\267\215\274\242\023\322<\321\367&=\356^\360<z\217\336\274\252\025L\275\350V\236\273g\303\370\274@/R\272\347%\035=\255\311\004=\r\306\344\274p\300!\275\000\226\263\274Ff\302<R\223\226<\216\335\266<0?z;@\034\017<\303\3717=\000\345d\274h\243\031\274\300\247\001<\211x\016=t4!<\350\034\241\273=\3116=3\235#\275\203r.\275\352+\025\275g\220$=\030\024\303;Y\330\016=\356\\\357<\223\'2=B,\304<Z\034\031\275\027\033#=\032G\007\275\306\235\r\275b\270\253<\203\377\030=\000\214\215\273\222\006\230<\301\356E=\223\225\301\274\3205\264\273\320\r \275\006-\201\274hM\244\273\224<\n\275@\317:\274\335\225\001\275\000.+\275\000\210\320\272\350\202\002<\347\035\020=\260K\'\275P\302\340;\367\275\003=\335\217\003\275#\353\025=\335\373+=R\212\272<R\242\323<\ro\000=]\022\032=\035\356+=\306M\022\275\360\312\t\275\022r\236<\323n\022\275$\263[<\035\204.\275Z\366\304\274\232\001\270\274\320 \257\273\035\326!\275\330\311\014\274\250\035!\274\347B\033=\275\331+\275MM\013=\250;\004\274\275\223<\275\223\243=\275w\365H\275z\306\267\274\231\304@=\000H\245\271Z\317\357<s?\304\274&\250\226<1\221\037=\230\237\032\274Xa\007\274\342\372\343<\250\267K\274m})=q}B=\320\211>\275\000X\021;\264\001\002<C\211\"\275\327\346@=`\261{\273=\323\032=\246?\376<3W1\275W\260\032=\262\037\245<g*\036=L\270\024<L7\023\274\023\263\272\274\330@\033\274\343\314,\275\247\\\333\274\006\367\331<\263O\034=\"\007\250<}\300#=\000\232\303\274M\332\276\274F\271\250<\251.;=.\277\376<\323\240C=w\021:=sz\317\274&)\003\2757\267\017=z\364\255<3\\.=Q\341A=\034Z^<\000\273\345\274\030\217\266;\247K\243\274(]D\274\272\221\241<\r2\357\274`\373\311\274y&5=\230\331x\274\355\321D\275\303jA=\000\200!:L\260\006<\200N\\\272Fu\274<\000\'\017\275&\202)\275$\337a<\255B\035\275\255.;=L\3722<&\005\241<zJ\327< \323\261\274\023\313K=4\271\024<g\247\005=p\331I\275\215\271\237\274\330N=\274WP2\275\200ys:\035\201@\275Z\262\340<\207G\026=\"\343\357<\355\236\334\274\266\310\024\275\000L\024\275\303m,=\263I5\2750\215\373\273\332\226\263<\36442\274Q\024\007=\332\024\200\274]\356\026=\361\221L=nQ\316<\367XE\275\327O1=`\340\010;\300l\244\274`z\342\272\r\233\'\275\000\341\264\274\007\235\250\274\200\337\364\274\256&\344<MS==\250\305V\274\300\363\017<\346\r\200<\372\264\276\274h\017\r\274.S\266<\231\322@=(\023\017\274\234Fp<7\3642\275s\364\033=\260\0325\275F\211\232<\201i(=hB\004\274F\371\377<\221\305;=v\203,\275\000\332\223;p~9\275\347\025E\275\"\260\255<ZV\264<F]\200<s\177\373\274\307\322.=L\210P\274\240\005\004\2757\2372\275Q\272\021=`\302];\256M\213<\263\361\014=q\n\010=\266\024\006\275\r\\\352\274\247\275\362\274\335\260\025\275\263L\030=\300\027\373\274 \360\227\274\2066\017\2750`\256;\262\264\200<4\215w\274\r\317\033\275\000\277\034<\227g==\255\234*=0\257\177\273\235^3\275\350\247\204;\000\014F\270(\2562\2744\374\177<\230\235\022<\307\342\270\274\350\336\243\273XE\004\274\232^\314\2744\330m\274-C\363\274\300\332\240:\200\376@\272\320\226\347\273\326\204\n\275\240\265-\273\007j1\2750\3218\275h\022&\274\320VG\275\000u\3559\235\350&=\230 }\274\226\363\034\275\240\262\330\274\300(I\274\232V\303<M\025\343\274@`$\275\'\345\235\274`\t\361\274\021\200?=\240\226\010\275\200b\275\273M\030,\275s\263\353\274Bc\337<\007IB="
      }
    }
  }
}
node {
  name: "net_vlad_layer_1/Shape_1"
  op: "Shape"
  input: "input_1"
  attr {
    key: "T"
    value {
      type: DT_FLOAT
    }
  }
  attr {
    key: "out_type"
    value {
      type: DT_INT32
    }
  }
}
node {
  name: "net_vlad_layer_1/strided_slice_1/stack"
  op: "Const"
  attr {
    key: "dtype"
    value {
      type: DT_INT32
    }
  }
  attr {
    key: "value"
    value {
      tensor {
        dtype: DT_INT32
        tensor_shape {
          dim {
            size: 1
          }
        }
        int_val: 0
      }
    }
  }
}
node {
  name: "net_vlad_layer_1/strided_slice_1/stack_1"
  op: "Const"
  attr {
    key: "dtype"
    value {
      type: DT_INT32
    }
  }
  attr {
    key: "value"
    value {
      tensor {
        dtype: DT_INT32
        tensor_shape {
          dim {
            size: 1
          }
        }
        int_val: 1
      }
    }
  }
}
node {
  name: "net_vlad_layer_1/strided_slice_1/stack_2"
  op: "Const"
  attr {
    key: "dtype"
    value {
      type: DT_INT32
    }
  }
  attr {
    key: "value"
    value {
      tensor {
        dtype: DT_INT32
        tensor_shape {
          dim {
            size: 1
          }
        }
        int_val: 1
      }
    }
  }
}
node {
  name: "net_vlad_layer_1/strided_slice_1"
  op: "StridedSlice"
  input: "net_vlad_layer_1/Shape_1"
  input: "net_vlad_layer_1/strided_slice_1/stack"
  input: "net_vlad_layer_1/strided_slice_1/stack_1"
  input: "net_vlad_layer_1/strided_slice_1/stack_2"
  attr {
    key: "Index"
    value {
      type: DT_INT32
    }
  }
  attr {
    key: "T"
    value {
      type: DT_INT32
    }
  }
  attr {
    key: "begin_mask"
    value {
      i: 0
    }
  }
  attr {
    key: "ellipsis_mask"
    value {
      i: 0
    }
  }
  attr {
    key: "end_mask"
    value {
      i: 0
    }
  }
  attr {
    key: "new_axis_mask"
    value {
      i: 0
    }
  }
  attr {
    key: "shrink_axis_mask"
    value {
      i: 1
    }
  }
}
node {
  name: "net_vlad_layer_1/Reshape_1/shape/1"
  op: "Const"
  attr {
    key: "dtype"
    value {
      type: DT_INT32
    }
  }
  attr {
    key: "value"
    value {
      tensor {
        dtype: DT_INT32
        tensor_shape {
        }
        int_val: 60
      }
    }
  }
}
node {
  name: "net_vlad_layer_1/Reshape_1/shape/2"
  op: "Const"
  attr {
    key: "dtype"
    value {
      type: DT_INT32
    }
  }
  attr {
    key: "value"
    value {
      tensor {
        dtype: DT_INT32
        tensor_shape {
        }
        int_val: 80
      }
    }
  }
}
node {
  name: "net_vlad_layer_1/Reshape_1/shape/3"
  op: "Const"
  attr {
    key: "dtype"
    value {
      type: DT_INT32
    }
  }
  attr {
    key: "value"
    value {
      tensor {
        dtype: DT_INT32
        tensor_shape {
        }
        int_val: 256
      }
    }
  }
}
node {
  name: "net_vlad_layer_1/Reshape_1/shape/4"
  op: "Const"
  attr {
    key: "dtype"
    value {
      type: DT_INT32
    }
  }
  attr {
    key: "value"
    value {
      tensor {
        dtype: DT_INT32
        tensor_shape {
        }
        int_val: 1
      }
    }
  }
}
node {
  name: "net_vlad_layer_1/Reshape_1/shape"
  op: "Pack"
  input: "net_vlad_layer_1/strided_slice_1"
  input: "net_vlad_layer_1/Reshape_1/shape/1"
  input: "net_vlad_layer_1/Reshape_1/shape/2"
  input: "net_vlad_layer_1/Reshape_1/shape/3"
  input: "net_vlad_layer_1/Reshape_1/shape/4"
  attr {
    key: "N"
    value {
      i: 5
    }
  }
  attr {
    key: "T"
    value {
      type: DT_INT32
    }
  }
  attr {
    key: "axis"
    value {
      i: 0
    }
  }
}
node {
  name: "net_vlad_layer_1/Reshape_1"
  op: "Reshape"
  input: "input_1"
  input: "net_vlad_layer_1/Reshape_1/shape"
  attr {
    key: "T"
    value {
      type: DT_FLOAT
    }
  }
  attr {
    key: "Tshape"
    value {
      type: DT_INT32
    }
  }
}
node {
  name: "net_vlad_layer_1/add_1"
  op: "Add"
  input: "net_vlad_layer_1/Reshape_1"
  input: "net_vlad_layer_1/cluster_centers"
  attr {
    key: "T"
    value {
      type: DT_FLOAT
    }
  }
}
